memory_initialization_radix=2;
memory_initialization_vector=1111110010111001 1111001000001111 0000001011010000 0001000011011000 1110101011011010 0000101101110100 0001100111001010 0000001000101000 0001010100011110 1101101111110111 1111100001010011 0001110101111010 0011010100110000 1100110011010001 1111010111101101 0011011111011111 1111000101110000 0000110010010110 1110100000001111 1110101110101111 1100101011110011 1111000001000010 0011100100001010 0011111010010110 1100100100110011 1110010011111100 0001011101110101 1101000111101000 0000111010110011 1111010100011001 1101010111011101 1110101001000001 0010101000100011 0100010001010001 1101100001010000 0011111011110011 0001100100100011 0000110111101111 1100111001011001 1101010000000000 0010010111110100 1101110100100010 0001011010111111 0001111000001010 0010111100111100 0001000001100001 0000100011110101 1111010101010000 1101010111010010 0000010101111110 1110111111000100 1111001000100111 0001011100110001 0001000000100001 0001000000111110 0000111110110010 0001011000110010 0000110101011110 1100101111001010 0011001110101010 1110101110000001 1110001000100011 0010111101110101 1110101100000001 0000100100110001 0001100111111111 1101010001111110 0011011110111101 0000001101110111 0011101100111111 1110101100001001 0011111001111111 1111000101011000 0001001011101101 0010010010111101 0011010101101001 1110010101001001 0011000011011101 0011110001110100 0011001111110110 0010100000110101 1111111001111011 1111100010101001 1100110100100011 0000101000001000 0001011100001010 1111100101111010 1101100101011100 1101011000011010 1110101100011101 0010010010001100 0001001000110000 1101000110010111 0010000010111001 0011101011100010 1110101000101110 0001010001110111 0011100011110101 0001010010010010 1110101001001011 0010011110100110 0000010101101110 0001111000011010 1110101010011111 0001010110110011 0010000001001101 0000000011111010 1110000011000001 0000111000000110 1110000011111010 1110010111011000 1101101111001001 0010000001110011 1101011111101001 1111111110000001 1101000111010000 1110100101100101 1111011101010010 0010100110100111 1111011111100100 1101001000011010 1111110011000100 0010111110100110 1111101011010111 0010110010001100 1100011101001000 1101011100011100 0011001011110000 1100101101001110 0000101010000011 1111110001101111 1101001010001110 1101011000111111 0011000101011010 0100001101110110 0000001100001110 1111101011000110 0000001110110010 0001111110111010 1100011111110100 1100101011110000 1101101111010111 0010010101110100 0010111111001000 1111010111110001 1101110001100010 0001110001111010 1101110011011100 0010001011000011 1110000101010010 0011110111100010 0001111010101100 0001110100110110 0001000001011010 0001010000110111 0011000111100110 0001110111001111 0001111111111010 1100111001000110 1101010110000100 1101110111000110 0000101011000011 0010001101111000 0001000000100000 1101101000101011 1100100111000111 0001101100111110 0001101000011111 1111100111110000 1101111100100110 0001100001010010 0011011100001011 1111110001000000 0011000011111010 1101110101110110 0000010001110001 0010111110111111 1101011000001101 1111000100010000 1111001001010011 0010111111001111 1100111011101010 1111000100101100 0011100111010100 1110011010110101 1101110001100001 0010010011110111 0010011110010101 0000010111001111 1101011011000001 0001000011000001 0001001101110111 1110110001110100 1110000110110101 1110101011010001 1111000000100110 1110100011010110 1101000110100001 0011100001111000 0010011100011111 0001000111001111 0000111101110111 0000100100010110 1110100011110001 1101101101110101 0000101011111101 0011001100000011 0001110110110011 1110001111100001 0001111110101110 1101101010001110 0000010000101000 0001010100010001 0010110010111000 0001011111110001 1110101001001001 1110001101010100 1111100101110000 1110010000111010 1110000100101111 0001001101110010 0100000011101100 1110000000001001 1110100011001100 1110111110010101 0010101000000100 0010010011011001 0000001100110011 1100111011101000 1100001111101110 0000101110011101 0010100100110111 0001101001100011 0001111010001001 1111001100010110 1110110111011110 1110101100111110 1111011000101001 0001001101000111 1110100010001101 1100110110011001 0010100001110100 0001010111110111 1111010111110010 1111010100100110 0000010001011110 1100001011011101 1111100011010111 0000111000101010 0011000110010110 0001001010010001 0001100010110010 1101000000011011 1110001001101011 0001000100110000 1100011000001000 1111100001100011 0001010010110011 0011100110101101 1100011010011001 1100111011110110 1101110111100110 1110110000010011 1100110010101010 1110000101100111 1101010011111111 0011100101010011 1110110110100111 0011011100000000 0001101011000101 1111001011110100 0001010100010111 0011010100010100 0000111111101110 1100111110110000 0000101100001101 0010001100011100 0001010001101011 1101110110011111 0010110101100000 1111001000100100 1101111000101111 0011010001100000 1100100011001110 1111101010000000 0000011001110100 1100010110011100 0000111001101010 0010001110010001 0011001000000001 0001110010101001 1110000000111101 1111000100101010 1110101010100010 1100110101011101 1111000110000010 1110001001101100 1111010010011010 0011100101001101 0010000101110101 0011011000000110 0010000100010010 0000011010001000 0001000011101101 0000010101111111 1110010010001010 0001101111100000 0010011001100101 0011011100010111 1111101100010000 1101010101110100 0010101100101000 0000101100101110 0001111100011110 0010001010001110 0001110111001101 0011001101000000 0010110011000110 1111101111110000 0000010111110101 0011001111011011 0010000101111001 1101001111100110 1101000110111010 1101110011011111 1110010001001111 0011000001000110 0000111000001101 0001111001010011 1110110010010110 1111011101100011 0011000001101100 1110101110010111 1110111100110011 1110001101100100 0001100011100001 1110001110011111 1101001111010010 0011111111100110 1100101100101110 1110001010100101 0011001001100011 0010011101110111 0001011100001101 0001101111000001 0010111111001000 1111111110100001 1110111111010010 0011110101001011 0011001101111110 0000010010100110 0010010101010111 1110110010010000 1110001000110011 1101101101100100 0001111101111001 0001000001000011 1111001110101011 1111010110000111 0010110011011010 1110000000110000 0010111011010101 0011110101111000 1111000110100011 0001000111011110 0011101001001111 0010100001100110 0000100011110101 0000011011010010 1111110000111111 0010110100011111 1110011011001010 0001010010001000 1111100000100000 0001000010101100 1110100110111010 1110001000001110 0000101001001111 1110010100000110 1101110110010111 0011011101000101 0000011010101001 1101000000100111 0010111011001000 1110001111010010 1110010010011100 0001110110101000 1101111001010100 0011110111111101 0001110011101101 1110100011011001 0000000010111100 1101100110011101 1101111100010010 0001110011101011 1111001110111111 1110001001011011 1101101010101010 1111010111110100 1110101100001000 0000011010000111 1110100010111000 1100100000001001 1111110010111001 1101100110100000 0010101000111000 0011010001110000 0010010110100011 0011000111011010 1111100100101100 0010010001110000 0010100100000110 1101111100110011 0000100101111001 1110000011011110 1111110100101001 0011010111001111 0000001011000111 1111001010101111 1111011011100110 0000010010100011 0010100011111001 0000111011100011 0001010001010101 0010111100011011 0010110111111110 1111011001101110 0000000000101011 0000101010101101 1100101000100111 1111000010100111 1011111111100000 0011010010011000 0010000010111001 1110111011001111 1111010100000110 1100101000011110 1100010110010110 0010111010110010 1111001001110010 1110100010010100 0000100100111010 0010010000010111 1101011000101010 1110101010100101 1101001110100100 0001000101000101 0000011110011111 1110001100111101 0011001100101101 1111101110011110 0001000000001001 1110001101010111 0010011000000011 0010101001001000 0011011011010000 1111010001100111 1111100010110010 0001010000010011 1110101001111001 0010001001011100 1100011111010100 1111001110101110 1100100000101010 1111011111111010 1101100011011110 0010001010001010 0000011110011010 1100110011000000 0011101111100101 0010110011001101 1100101011000111 1110100011111001 0001101101000111 1110110010101100 0000011000000011 0011010001011101 0001100111001011 0001111100000000 0000100001111010 1111100111111110 1110111111101111 1110110010110010 1110101000011010 1110011010101111 1111010100011111 0001010100100110 1100110110111101 0010000000000111 1110010011101110 1111011000100101 1111100100110001 0001010001010011 1111001001000010 0010001011001000 0001111100101110 1100101001010010 0010100110101011 0000011010101110 0000100011111101 0001111111110011 0100000010110100 1100100010001100 1110010011101010 1111001011100101 0010011001110000 1110001100111001 0001010011001000 0001100000011100 0001110111001000 1111010111101110 0010111100110110 0001101111000010 0011011010101011 1110110111101000 0011001010110000 1100111111011110 1100111111101111 0010010000011000 1110001110111100 0011011001011011 1110101010101101 0010000111111001 0010101101101001 0000100111010010 1110111010001100 0011000111100111 0011011000011110 1101011010111011 0001001110100000 0010111101010000 1100101110001010 0010101000100010 0000011101011000 1111000101010001 1101010101000100 1110000010110110 1110100011011100 0010111000100010 1101001011100001 1101110010000001 1100101010000010 1100011010001001 1101011100001100 0001100001010100 1111001101111000 0010100000101110 0011010011000100 1111010101110100 0010110011111111 1111100011000101 0011101011111110 1101011100010010 0000000010001000 0000110000001010 0001100001100101 0011110010110101 0010011101011010 1101110111111001 1110000100010010 1111101111000000 1111111011010101 1110001110101101 0001110111111000 1110011101111111 1110110011011000 1110000111100110 1101111100101100 0011001011010111 0011001110010001 1111110101011000 1101010100110101 0001011010101110 0011101010101101 1110011001100100 1111001011101110 1101100111001011 1110010110110100 1100111111010110 1101001010110100 1100110001010100 0011010000110010 0010101110010010 1101100101001111 0001000011111011 0000001111010001 1111101110100001 0001100100110111 1101111000010110 1110110000101001 0011000100010100 1110011000011111 0010100001110101 0010110001000111 0011111101000010 1111010101000010 0011111010010110 0000010010111101 1101011010000110 1110011010110011 1111111010000110 0001010000111000 0011010000010111 0010000011010111 0000010001101001 1100110100100110 0000000011011101 0010100110001001 0000010110100101 1110011101101010 0011100010110100 1100100000010101 0000110000110110 1100110111000000 1111000010100000 0000001001100001 0011011010001100 1110100001001100 0000010011101000 0001100100001011 0000110011110111 0001100000100100 0010111001001000 0011100100111011 1110101011001000 1111011101001001 0010000101101111 0011110000100101 0001010111101100 1110000000010000 0000111110110000 1110010101110001 0001110101101010 0011111001101101 1110110111101010 0010010011001110 1110100011110010 1100101110111010 1100111101001010 1110100001011001 1100101010100001 1111011000010101 1111000101110011 0010011010111101 1111001100111111 0011011111101000 1101110000001110 1101111000101101 1100111000001011 1111101101010010 1111010011100001 0010011110111111 1110010111011010 0000011110100010 0010101000111011 1101010111100100 0001000011100010 1110101000000110 1110110101110000 0011110001001010 1101001011001100 1111110001011011 0001100011011011 0010010111001010 0001111010010000 1100101110111100 0011011100111100 0001001110011111 0000010111111111 0010111011011110 0001001011011010 0000000010000110 0010010000001001 1111001101011111 1110010011011101 0000110111101011 0000101110100111 1110000111111010 1111010111000011 1111001000000010 0001011000111011 1110001001110010 1110010000011111 1101010100000111 0010000001100011 0100001001100100 1101011011000110 1111100111001011 0001111100111111 0000000011101000 0001000111111000 0000000100010010 1101110011111111 1110101101010100 1111011010010001 1111001000101111 1110101100110011 0000111001000000 0011001001011111 1111010011001011 0011010101100011 0000111111010110 0001000000111110 0001110101001101 1110111010001100 0000010010000010 1111101010001011 0010011010000110 0011011110011111 0001100001110011 1110000100111011 1101001101000010 0000010000011101 1110011101111001 1101010100011100 1110000100101100 1111101100100111 0011100000000100 1100111000001010 1111000011000101 1111111110001110 0001111100001000 0001010000010010 0000000010000010 0011101010100001 0001111111101010 1110010000110000 1101110000110101 0010011001000101 0001010110000000 1110010110010110 0000101001010001 0001000001101001 1101011100110101 0010001100001010 0010001110010110 0000100010111001 1101111111001100 0010110010101011 1111010011111010 0000101000101000 0001110100001001 0001111010111001 0010000111000101 1111010010101101 1110101011100110 0001100100000110 1111000100101101 0000000010100011 0000101111101100 0000011011001000 1110111100010001 1100101111011100 0010011001100100 0010111000000111 1110110101111111 0001101100101010 1111011101110010 0010000111101011 0001001001000001 1110011001110100 1111101010110010 1101001100011011 1101110110110111 0000110101001100 0010100100100000 0011000110110110 0001100101010101 0011000001101110 0001000001010111 0001000111011010 1111111100111010 1101110110110110 1111111101010010 1100110001100111 1101100000010000 1101101110010010 0011111011011011 0011010111101011 1110110000101100 1100100101111010 0001010111011001 1101110101100011 1100100111011011 1111010010110110 1110100010001100 0001110100011110 0000110110011001 1101110000001011 1110110101000101 0011010100010011 0011110010110110 1110100010011000 1111001011111000 0011001010010111 1110100100110111 0010110001010010 0000101100101100 0011101100000101 0011011110000010 0000010110110101 0010100001010100 0011010011001000 1111110001111101 1110011011111000 0000010001110101 1100110001111101 0011011101110000 1101100011011001 1110010011110110 1110001110111100 1110001010100011 0010001010000000 0000101101101011 0001011110111010 0010001011011001 1100110101010010 1100100101100100 1110100011000110 0011010111111011 1110001111101100 1101000101001011 0001000000010001 1110000110111110 0000001101100000 0011000000011111 1100011011101111 0000110110111101 0010111101001100 1110010001010110 1101110111100001 0001001010011110 1110010011100001 0011010001110110 1101100011101000 1111000000100100 0010100111110011 1111010111000001 0010010001101100 1101011010010000 0000001101010011 0011010000100011 1111101000110100 1101110001000110 1110011101000110 0100000001000111 0000100110011100 1100100001110111 1100111100111010 1110111001001101 0011001110110100 1101011000010101 0001011111001011 1101100000100011 1111111110100010 1111101011111110 0011101101001110 1111010010111011 0000011111110000 1111110100110101 0000011010111111 0001100011001100 0001101000000110 0010001100000111 0000100100100010 1111000100010010 1110111011011000 0001110001100100 1101010010111001 0001011001101001 1100000100001111 0010100101000011 1111011100101001 0010011111111110 0011110001110100 0010001101111111 1110001001011010 0001111000100001 0000011100011101 1101001111000101 0000110011100000 1110000100011011 1111010011001001 0010110100101111 0010101001010111 0000110010001100 1110101001101101 1100100110001010 0000101010010001 1110001111101111 0010011011110010 1111111111000110 0001010110001110 0011100011100001 0011101010111000 0011011011011110 1100101100000100 0001011010010101 1110111011100010 1110100110111111 0010001100011110 1100100101010000 1100011100100010 0011010001000110 0001110011110010 0011111101011000 1111000010011101 0010010011111110 0000001001011010 1110010001001110 1100100011011100 0000111110101110 1110001000100100 1111001110110011 0000110111111010 0010001000010110 0010000100100100 1100100010101100 0001000111011010 1100101000011110 1110110011111011 1110010011001101 0001010100111010 1111000001000000 0000010001011000 0000001101111111 1111100111101011 1111011010111010 0011000011001000 0000111001110111 0010110010100110 0001100110100111 0011011000000100 1111000011000001 1111010000100101 1101100000001110 0001011000001011 1101011101010001 1101100100101110 0000100101010101 0001100011011011 1100110101001111 1110010100101001 1111001110101110 0010010101101011 0001100001010000 1100111010100011 0010100111011001 1100110000100010 1111011001011111 1101110000001110 0001100000100100 0010110111010101 1111000000101001 1101011110100001 0010000000101101 0001010010101010 0010000000010010 1111001100111101 1101100010101110 1110000111000101 1101101001010100 1101000000001001 0010110101000000 0001010011110110 1110000110100000 0001001101000000 1101011101110100 0001110111111000 0010100010110010 1111001010010011 0011001100101100 0000010101110110 0011001100011110 0011001100001111 1111011100011010 0011001011011100 1110111000111010 0011110010001001 1110111101111100 0010000010101101 1110101100100100 1110101011001111 1111000111101011 0001010000000010 0011001110111001 1110000110000111 0010100101100000 0010011101011001 0010111000101010 1110011010010111 1111010011101110 1110010110000010 1101110001110001 1101101001100000 1111011010101010 0000001100000110 0001101101101001 1101011010011010 1111000111001111 0010101010000011 1101011111000001 1110100101101100 0010010111101011 0001110010110000 0011110101010101 1110110000011110 0010001000001110 0000101100011011 1110010101001011 1101111101110000 1101110010010001 1110001000010111 1111001001101001 1110111110000100 1110001100000001 0000111101100110 0011100001101110 0010011000000100 1100010111001001 1100111001100000 1101100110010111 0011110110110001 0010110111101000 0100010111001100 1100101111000101 0010101000101001 0001101111011100 1110011100100101 1100111001011000 0010000011010111 1100110011100000 1101011001000010 1111100001111111 0001010111100100 0010100011101010 1111001000001111 0011011011000100 1111100100010101 1101001000001111 0010100110001001 0000110101010110 0010000001010101 1100111010100100 0001011010011111 0001001101110011 0000000000100000 1101101111110110 0001110111101100 0000101100000000 1111101010001111 0011011000011101 1101001000110001 1101110100101001 0000001110110001 0100000111111010 0010011010101011 1100110001010110 0001010100100111 0100001011101110 0000100001011000 0001111001000011 1101110101001101 0010111001101110 1101001110111111 1110001000100001 0100001101100110 1101100111101100 1100111100010011 1111101100011011 1111100010001110 0001111101010000 1101111100010100 1101011100100111 0000111101111000 1101100011001011 0011111111100001 0010011111001101 1100110101001111 0010011000010000 1101101010011110 1111110011111100 0011010010011011 0100001101011011 1110000000101010 0000100011011111 0010010001111000 0010011010010100 0000011111110101 0000111011101110 1101100101011111 0100010110001010 0001100011010101 0100000000100111 1101001110001101 0001010111011010 1100110100011011 1110111010100010 1101111001010111 0011010000100101 1101011000001100 0011101001110010 0010110111101110 1110010101000100 1101101000111010 1101010010000101 0010001111110111 0001001110101101 1101100001111110 0001000111011000 0011100011101100 0001011101110010 0001010101111010 0011000000100110 0001101011110011 1100111000011000 0011100111010000 1101111101100010 0000011000000011 0000101101101000 0001000101100000 1111000100001000 1101001010101010 1111100010111011 0010001010000110 1100011110110100 0001011000011100 0011001101101001 0000101101100100 0000000000000001 1110000100001101 1110111110111110 0001010010010100 1101101100011100 0011001100011110 1100110101111110 0000001011011011 0011000000010001 1111101100101110 0000011111111111 1111000001011110 1110011000100010 1100110001100101 0001000100101101 1111000111110110 0000001100100110 0000010110011011 0010001101011000 0010010110010111 0011010100100100 0011101010111110 1110001100110000 0000011010011110 1101101011110001 1111010100110011 1111001001001011 1111101011000110 0001011001110110 0010101111101001 0001010101000010 0001000110101111 0011101110100101 1101011001111111 1101000011011001 1101100001101110 1101011111001110 0001000111110011 1110110110001011 0011110001101101 0000111001101110 1101001110000110 0000011100010110 0010000111110101 1110111111011110 0010100101000010 1101011101011011 1100100110011111 0000000000100110 1100101001010100 0000101110001000 0001001110001010 0010110000010100 0010110100010101 1101000110101001 0000011000011101 0011100011111111 1110001101101001 1110010010100111 1111100000111100 0001110110110100 1101000111100001 0001001101111111 0011110011000011 1110110000101010 0001101011010000 1111100000111010 0011010000101001 1110011011001000 1111000011001101 0011101000010101 0000111110101101 1110111111100111 1101101101101111 0010000010110110 1101101000010001 0000001100111010 0011010101001100 0001001101110000 1110001110101011 0001111001011000 1100110011111100 1110001001001100 0000101111101110 1100111101110001 0001111011110011 1111110010010110 1111010010101111 0010111111100100 0011001000000001 0010000000101100 0001101111110111 1111001001111100 1101000000000110 0000111010101011 1100010101100100 1110110100011011 0011001110010110 0011010110011000 0000010111111001 1101110101010010 0010011010111101 0011100101011000 0010111110100100 1100010000011101 0001001011101111 1100100100011111 1110111000001100 1111011110011000 1111101101110111 1101000000111110 1111000001100101 1111101010110110 1101101101000110 1111000110000010 1111100000011000 0000110000111100 1111100000111110 1111010100100000 0000110100011100 0010100111110110 1101110100110001 1111010101011100 1110110111111000 1101101110010110 0010010000001101 0001011010001000 0010000000100100 0001110111101101 1110010011100011 1111000100101110 1101001010000100 0010010000111000 1111100011101010 0001100001011101 1111011011001001 0000110010010110 1111000011000101 0001110010111100 0011011000100010 0011011111001010 0000110100100111 0011101000000010 1100000110000011 1100111000101011 0011100001000000 1111001110111100 1111010101101101 1111011110000000 0000011101010111 0001010001100000 0000110100000001 1100110111000111 0000011111010111 0000010010000000 1111001100000100 0010010001100110 0011000111001110 0001100101001011 1111010110100000 1111111101001001 1110001100011000 1111011110110110 0011010100000111 0011100010000110 0001110100011100 1110111110100100 0001010101110000 1110011101111111 1101010010100011 0010110100110111 0011000101011110 0010100101001000 0000000000110000 0010000011001010 0001101100100001 0000001111100100 1110001010011010 1100010010010011 0010110000000100 0011100010010111 1110001110011101 1111010101111010 0001101100101111 1100011100000111 1101000001000000 0010101001111010 1110011001111010 1100100101011001 0010100101000100 1110010001110110 0001110111000001 0001000100000111 0000100001001000 0010111110100110 0010000100011111 1101110111011001 0000010010010000 1111011110011010 0010011111100000 1110010100000010 0001100111011111 1100010101110110 0011001001100011 1111111000001101 0001010100110000 0001100111010100 0010010101110000 1111001100111101 1100111011111110 1111001101101011 0001000110101111 1110101110110100 0001010010001110 1100101000000110 0001111100010111 0000010111101111 0001010010110101 0011101011101101 0001010011110011 1101001001110101 1110101100101100 1110010011000110 0010111011011001 1111000100101011 0000001011100111 1100010011111010 0000100110101110 0010001001110001 1100010011000000 1110100110000011 0010011000011011 0001110111101000 1101001001101010 0000000001011101 1111111111011000 1110110011100010 1110010100110010 0010011010100100 1101111010111000 0000110000101011 0001101010111101 0010000111101001 0010010000011111 0000101011001110 1110001110001110 1101100110000011 0000100011010100 0000010001001111 0001001001111010 0011001100101001 1111110110010011 1101000011010100 0010110101111111 0001001011000111 0000011011010000 0001110101100000 0000101000001011 1110110000000000 0000001101110010 0010011100000010 1101011000100011 0000010100010010 0001010110101010 1110010010100011 0010100010000111 0010000000011101 1110101000110100 1111011001110101 0001001101101100 0000101110011101 1100111110000100 1110100110100100 1111010100110111 0001110010001011 0010001000110001 0001111010101010 0000111011111000 1101111001100100 1110000100111110 1110010011011100 0010110010101111 1110011000100110 1101101000000000 1101000100010000 1110110110101011 0010100100100000 0011000011110111 0000000001100001 0000000110111010 0011010111000110 0000011110101010 1101111100101010 0000111100111001 0011110000010111 0010111110000101 1111011010110101 1110000001001110 1101011110010101 0011011100110101 0010011111101010 1111101011101100 0001010011100111 0010010111001001 0010001010100001 1110100101111010 1101100010011101 0011100101101010 1101101010100110 0000111010100011 1101010001110011 0001110100110100 0010011011101001 0001101001100100 1111100010010000 0011100011000100 1111000001010101 0011100011010110 1101010001010010 1111110010100011 1101001010000100 1111001001010111 1111010001101010 1111101001101000 1110100001001000 0010010010111001 0011100001010111 1101000101001011 0011000010100111 0000111001100011 1110100101011100 0011101001011001 0000010101101001 0000101010101011 0000110010000111 1100001011010111 0010100001011000 1111110011000100 0010111011110010 1100110010011010 1111110101001000 1110100100101100 0000101000010110 1111011111110011 0011100010110001 1110110100010110 1100110111011111 0001101111110100 1111000111110110 0010110010011110 0010101111011001 0011011111000100 0001101001110010 0001101111110010 0011000101111101 0001101110001100 1100111011101110 1111110010000100 1111001011000100 0010100011110011 1110010011011111 0000011101110101 1110101100100010 1111101011100011 1100010101111010 1101000010101001 1111010000111101 0010111010000101 0011010100010110 1111000000110010 0010110100111001 0011010000100110 0000001111101001 1110011100000101 1100011001101010 1100011111100010 1111100001010011 0011010111100000 0001100100110011 0001111010111101 1111101111010111 1101111110111001 0000100111000001 1100010010110000 1100110001110111 0001000001111010 0010010110100111 1111001111010011 0011000110101001 0001111101101110 0001010010101101 0000010011011001 1110011110001101 1110101001010010 1110100011000100 0001101010011001 0011011110001110 0000100110010001 1110010010011111 0011000101001110 0000101110011111 0001011110111110 0000110001011000 0010001100100010 1110000010100101 1111000100000001 1110110110100111 1111011001010000 0000001011100110 1100011110011001 0001110101100000 1111101001011011 1100001001010000 0010001001110010 1111100011101111 0001001110000000 1101011101110000 1100000110100001 0011001111011111 1111011100101010 0011001010111110 1111101100111100 1101001110001100 0001101011110000 1110110101010101 1101010001000011 1100101110011110 0011100110100000 1101101111110110 0001001010110011 0001111100000110 0000110011101000 0000101010001011 1100100000111000 0000011110010000 0000110001001101 0011000110101100 1101100000100011 1111001000000010 0010001001001010 1111001111100010 0011101000111100 1110011011000010 0010000100100011 0011000110011111 1100110011100010 1101000111100110 0000011011100001 0000010110101000 0010111010111100 0010010111001010 0000111011001111 0000111101101010 1101000011001011 0000000001110101 1101011010111000 1111011010101101 1110001010001110 1110101001010110 0010101011001010 1101110100101100 0000100100111010 0010001010001011 0000111111110111 1111100111110000 0000001010001101 0010010001010001 0001011001010101 0011011000111001 0010101000110111 0010100100000100 1100111001100010 1110011001111100 0001111110101011 0000111011000010 1101001011100011 0010011100110100 1111000001100010 1111110001010010 1100100111011110 1100000100101110 0011000010000100 1110011100110011 0001011101101110 0010000111001011 1110010101000011 0010001111101101 0000110110101101 0010101111011100 0000110100111100 0011011111011011 1101001000001110 1110011011011010 1100111101100011 1111100001010101 0011001111110010 0010001000100001 0000011101111100 0000000001000110 0000010101000100 1101110101101001 0001011010101100 1111111011100110 1101100001110110 0001100011111111 1110101001110110 1110010000000000 1101100001000000 1111000110101111 1101000111010001 0001001001110110 1110001011100010 0010100011011110 0000101011011010 0010101100000010 0010010000011101 0011100000100000 1110001011101111 0000110011001011 0001010101101111 1101001111011001 0000101001100011 1100111001111100 0010000111010001 0001101000000100 1110010101001111 1100010111101101 1111000001110001 0011101111011100 0010110100110110 1101100011110101 0001011011000100 0011011001001111 0000001101101010 1110100100000000 0001110100001001 0011011110111101 0000100100110111 1111111000100010 0011101100010101 1101001010001011 0001101001001001 0001000110111110 0011101111100111 1110011110010001 1101110000000100 1100111111010011 0000001001100000 0010001000110000 0000011100101011 1111100111011100 0010011010011010 1100100111111110 0011111001101100 1101010000101101 0011000100000011 0010111001001011 1101011101000101 1110001011000101 0011100100111011 0010001100110010 1110000010110100 1100111001111100 1101001111111000 1100100101100011 0001100010111111 0001110001101110 1111100110100011 0000101100110010 1110011110011101 1111011101000011 1110111000011001 1101101000100101 1100110100111000 1110010111101111 1111011001001111 0001101110111100 1111000100101101 0000111110011010 1100110001010010 0010101111111011 0010110111001000 0000010000010010 1110111101110111 1101011011001000 0000101010111001 1101100011001111 1101101001111011 0011101101010110 1111100110110000 0000001111010011 0010111101011101 0011011111110000 0000100010100010 0001111111110110 0010100000110000 0011101001111100 0000001010100100 1111110110110000 1111110011101110 1100110010100000 0100001111011000 1110101100011111 1101001110111110 0001111000010111 1110111011111110 0010110110010001 0010011010011100 0001010100010100 1100110100000101 0000001111010101 1111010110011111 1111010011001110 1101011100011100 0001000000101011 0001111101111100 0001110001100010 1110010110011011 1101100001011100 1110010111110011 1100111110111011 0000010001001111 1101110111101000 0011111011001011 1100100101001100 0000100011001011 0001010010010110 1101101010110101 0000100011000101 0011100011101011 0011100100110011 1111111000001110 0000101011010011 1111010000001110 1111101011001011 1111110010011010 0000000010010101 1111100111010010 0011110101111100 1110011001111001 0000011011011000 1111001110010100 1101101101101101 0100001101100010 0001111001011100 1110110101100111 0011111111010000 0000011111111000 1101111010000110 0001010011011010 0000011001110101 0000110000111010 0000100010010011 1111001110111111 0000011111101001 0010101101111111 0000110110110010 1110100010101011 0010010000001001 1110011001010110 1110000001001101 0000010001110001 0010111110011011 0010001000111001 0010011001010101 1111010101101100 1110000110111001 0000101101101011 1111000101110001 1111100100010001 1111111011010111 0100001101111100 1101010010011000 0001011000010011 0000010011011100 1110000100001011 0011110001111011 1101000001011101 0001010110111010 1100110110111110 0000101100010001 1101111011001100 0100011011000001 1111000101110010 1101111000000000 1110101110111000 1111110011000100 0001010111001111 0010001110100100 0011110010100011 0000001101111000 0100000010100100 0010111111100100 1111010001100100 0100000101010111 0001110010110000 1101101000100101 0001000111010100 1110101001010110 0000101010000001 0010100011111110 1111011001011001 1100101001010011 0011111100101001 0011101000000100 1101010101010101 0001000001111001 1101011100110000 0000010010111101 1101011010101111 1101111011000100 0000100110001111 1101010110001100 1101110100100010 0011100011111000 1111010010001100 0000111101111110 1110111000010000 1110001000001001 1100110011100011 0000111110101100 0100000111010010 0000010111101011 1111110110100000 1101001111111101 0000001000011100 1110111110010101 1111011111000101 1110110010111010 0100000011101011 1110000001000101 0000000010101001 0011000101010000 0000100010010010 1100100101111100 0010100001111110 0001001100111000 1100011111100100 0010101011010010 0001001010111001 1111001001110000 1111101111111110 1100111011001011 0010000111001011 1111011111010011 0010011100011010 1110010101110101 1101010110101111 1110011111101111 0000000000001110 0001000100101001 1110101110100001 0010000000100011 1101001011111111 1110100100001011 0011110001111001 1100111011010000 1100110100000101 0001000000110100 0011100000011110 0000011000100011 0001111111010000 0100000111001001 0000001001111000 1110000001100110 0000000011100001 1110101011101010 1110111001011001 0010011000001000 0001101000100010 1101100000101101 0010111001001011 1101101110101010 0010101011111000 0001111111111111 0010110000001011 1111110000010100 0000011111010000 0011000010100011 0011010110100100 1101101010110001 1111100000100111 0001110110110110 1110110111000000 0010110110010000 0010010000100111 1111001110011000 0001001111101111 1101111100001011 1110011000110000 1110110011101111 0011110110100101 0010011111011101 1110111000001110 0011000011101110 1100101000011011 1111110101110101 0001000010100001 1100111100001010 0000001100100001 0000110100100010 1111001101000110 1101111110001010 1101100110111111 1110011110101101 0010110110111100 0010111011111010 0001011001110010 1100100111010111 0001101111011110 0011001101011110 1101101101101001 1110100001110001 0010001101001010 0001000111010100 0001011010010110 0001100011011110 0000111110010101 0010111101001101 0010011000010011 1111111101000011 1110101101000001 0001010011000001 1101110100010011 1100110110010110 1101001001100001 1100101100111000 1111011100111010 0010100111101000 0001000111000011 1111101100010001 0001001101011011 1110101000000111 1110000101000110 1111001101001100 0011011000110000 0000011110010010 1111010001011101 0100001000110000 1111000001111010 1100101101100001 0000001000101111 0010101010101010 1101110110100010 0000010010010110 0011000011000001 0001001111010000 0010110011000011 1110110101110110 0010111001111000 0010010010101000 0001001010111010 1110111100001111 0001000110110010 0100001010100000 1110001111111100 0011011111100110 1101010011011100 1100101110101001 0001111101000100 0000011000001111 1101111001000010 0000010110111010 1110101110111111 1111010000011101 1100101001000101 1100110000101110 0010110100000001 0000101000010001 0000111101001010 0011101110000101 0000011001110111 1110010110100001 1101001111111110 0001101110011001 0001101111111100 1111011001011100 1101111101000001 1110001000010001 1100111101100101 0011010101001101 1101001011000111 0001110100111000 1110110000010111 0010111010100110 1111101000001111 1111001010111110 1110001000011011 0000111011100111 0001000111011010 0001001010001001 0100001010110110 1110111100001000 1101100001010110 1110110001000110 0000111011100000 1111110011010001 0010110011001101 1101111100011100 0011001010011001 1101110011101000 1111101100101011 0010100111111100 1110101010001100 1111000101011001 0001100010000111 0000101111101101 0010101111110111 1100100010011010 0010000101011101 1101101100011111 1111111111101000 1111011111001111 1110011011000001 0010101100111001 0000001011100101 1100101100011001 1110110001111110 0001110100100011 0001011010101001 0001000010001101 0000010010101011 0010111101110000 0001001001110111 0000010000000000 0010001111101110 1110111010011101 1111000100100100 0011000110101000 0001110000010111 1101011001010100 1111101110101011 1110000010110101 1110100001111000 1111001111110001 1100101000000010 0001101111111100 1111010000000000 0000101011001011 1101001000010100 0000100000010000 1101100100011000 0001001110001110 0100000010000000 1110010101011111 1111111111100000 0001011001010111 0010001010001011 0001100001000010 1111001010100011 1110110010011000 1110110110110011 0011100010001011 1111111011010011 0010110111010001 1111001110011100 1101101101011011 1111110101101111 0011100010110100 1100100010000000 0001100100011110 1110100110001000 0011011110111101 0010100010011101 0001010000000001 0001011111000110 0011101100011001 0011011111100000 1111000101000011 1100110010101100 0100000000000110 0000000101010000 1101100111110000 0010010111011011 0001110110011101 0010001100100011 0001010110000111 0001100001101101 1110001000010100 0000001110000000 1111010110100000 1100111001110001 0010001011010001 0010001100110101 0001001111100111 0001011010110111 1101000011101100 1110110011110001 0000110011111101 1110110110000010 1101110100010110 1100100000110001 1110101010000111 0000111100100110 1101101000011011 0010110111111100 1100100110110100 0010110000111011 0001110110001100 1100101011001001 0010111100001110 0010110111001010 0011110100111111 0001011010100010 1111111011010110 0001111000110011 0011100010111000 0001101010001101 0001110111001101 0001001000101011 1100111111111010 0010111010010001 0010100100001110 1110001000110001 0001011100011010 1101100001111011 0010000100000001 0010011000010000 1101001111101100 1111110011101010 0011101101111000 1111101001010100 0000110111101011 1110111000111110 1101110110110111 1111000101111000 1111010100000100 1110101101111000 1101101011001011 0001001100011001 0001010101100100 0000101001001000 1101011011000110 0010101010111001 1101010101001100 0010010010110001 1100110111010110 1110001101011000 1101100101010011 1101010100101100 1111001010111101 0011111000011010 1101011011101111 1101111110001000 1100111100001100 0000101101100000 0100000000011001 1111100100011100 1110010000011101 1101101111000100 1111111110111011 1110001100101011 0001100110101001 0011010100110110 0010000101010110 1110001001000000 1111101011011011 1110001111010110 0011011100011101 1101111101111100 0000101110011001 1110011101000010 0001001000000010 0000011110010110 0100000101110010 0010000111001001 0001100100011100 1111001001101010 1100011001101010 1111000010011110 1110001011011000 1100111100110011 0001000001111001 1111010011111000 0001101010011000 0010110000010011 0001100110110101 1100100100100001 0001101001111100 1101111001001101 1100110011111111 1101011110010101 0000011101000100 0010000101111111 0011010000000101 0001100101101100 1110001101011111 1110111100010101 0011000011000111 0000000011111000 1101010011011011 0000011110001101 0001111110000110 0001011110000001 1101111000111000 1110000100100010 1100100011110111 0010111010101000 1100110001011100 0001111011111110 0011001000000011 0001100011100000 1110001011010100 1100011110111110 0010000010101000 1110011100111101 0001010010000100 1101011010011111 1111111011101000 0010111011111101 0011001000000001 0011100010010011 1101101101100011 0010000000011110 1101100110000001 0000101010110110 0000000010000101 0011000100001111 0010001100110010 0011001101111100 1101110000011101;
